/**
  ******************************************************************************
  * @file    network_data_params.c
  * @author  AST Embedded Analytics Research Platform
  * @date    2026-03-23T12:24:42+0800
  * @brief   AI Tool Automatic Code Generator for Embedded NN computing
  ******************************************************************************
  * Copyright (c) 2026 STMicroelectronics.
  * All rights reserved.
  *
  * This software is licensed under terms that can be found in the LICENSE file
  * in the root directory of this software component.
  * If no LICENSE file comes with this software, it is provided AS-IS.
  ******************************************************************************
  */

#include "network_data_params.h"


/**  Activations Section  ****************************************************/
ai_handle g_network_activations_table[1 + 2] = {
  AI_HANDLE_PTR(AI_MAGIC_MARKER),
  AI_HANDLE_PTR(NULL),
  AI_HANDLE_PTR(AI_MAGIC_MARKER),
};




/**  Weights Section  ********************************************************/
AI_ALIGNED(32)
const ai_u64 s_network_weights_array_u64[1101] = {
  0x3df0e84e3e48a568U, 0x3d36011b3e60596eU, 0xbc9282ee3e66e0feU, 0x3e868c283daa4acfU,
  0x3e636841bc0890a3U, 0x3e0267be3e53cdceU, 0x3e944f9e3e7e6855U, 0xbbc724953d99f264U,
  0xbd41a5173c82073eU, 0x3e32432e3e2f38a7U, 0xbe2d5b0fbda23da1U, 0x3d56abf63e57c4caU,
  0xbe09c79fbc04f449U, 0xbd495c1abe280fa6U, 0xbe3b5c7ebd5978e9U, 0x3de193093e4b7bd7U,
  0xbd178d063e3233f2U, 0xbd2a6d5d3d8a97ecU, 0xbe09c373bba21927U, 0xbd12bc903d7ec5e5U,
  0xbc22b5823c92d51eU, 0x3e418f2bbe861bbdU, 0x3e58afe6bdd8804bU, 0x3e264b14be05bb2fU,
  0x3e021a4d3d528fd3U, 0x3dbcfa63be59d463U, 0x3e5150443e2312deU, 0x3e8caa5e3e13642fU,
  0xbd564f793da22872U, 0xbd86391c3c7b553cU, 0x3c103f1d3bd0b42cU, 0x3c18e3fb3bd8122aU,
  0x3c1f32ea3bdeb894U, 0x3c1ca52e3bd4e3fbU, 0x3c1e37ec3be2d76dU, 0x3c1fe9ca3bebd81eU,
  0xbc468e7bbc6c915dU, 0xbc3f0c14bc77dd00U, 0xbc3f27f6bc668dc2U, 0xbc4343f5bc7987fdU,
  0xbca492103c79258eU, 0xbcc21fcf3c92cca1U, 0xbca854b03c4a05b5U, 0xbcbd652a3c75a423U,
  0xbcb67cee3c8db2edU, 0xbccf73ca3c94c8a2U, 0xbcab66a43c84ff41U, 0xbcc840b83c94f10bU,
  0xbcb38b743c8b2d99U, 0xbcd2a6c23c83f90cU, 0x30a8bfed30a89df4U, 0x30d604bf32063d8dU,
  0xafc4320230b6c230U, 0x30d729cc30b1f0f8U, 0x30c0bf3f30b354dbU, 0xb0f6b70a30b76336U,
  0xb1801748afa45ddcU, 0xaf9d05a1b2827780U, 0xaf4c27e3b058a987U, 0xaf522e9caf944422U,
  0x9c793b178000ae37U, 0x2df77852f4f2a82U, 0x80650e4e015b5c71U, 0xae48d2110004ae24U,
  0xacb4514e000093cfU, 0xb2be48d8aedfc70cU, 0x2e971b24a692bd2aU, 0x80002bb2279404aeU,
  0x80004280a72ddaa4U, 0x88de800088ccU, 0x3e0bf0ea3d437f5fU, 0xbd831d3d3c8f1b73U,
  0x3e52b914be623afcU, 0x3e6061bebe08bbb4U, 0x3e8b86b03e03bbeeU, 0x3e3898b4bd7918e7U,
  0x3e97cbdbbe4bc066U, 0x3e33683fbe4eb29aU, 0xbdb28c12bda38466U, 0xbcb0ad603e25cf38U,
  0x3e3f73a43e33317aU, 0x3b447393be2f851dU, 0x30847f833d63fe9eU, 0xbb55f7b189c5593eU,
  0x3dbbe6723e4cf923U, 0x361f17cebd79f786U, 0x2bd0ff8c3cd9bfeeU, 0xbd1c57350054ab58U,
  0x3dbf2b633e3cf06bU, 0x36935fb2bd915fcaU, 0x2b8d64cd3cd8cb7eU, 0xbd3c7bc0800089adU,
  0x3db45bff3e46fc77U, 0xbc147d6dbda1450fU, 0xb0b20abd3cdf30a1U, 0xbd63d60b8000890cU,
  0x3e0e2ce33e5ea6eeU, 0xb58b7f9a3e0e5517U, 0x2e3cc5a43be35019U, 0xbd1088fd1c33cc2fU,
  0x3e04115f3e878351U, 0xb5b21da63e170aadU, 0x2b507b543bcdb385U, 0x3d55e777056b67a6U,
  0x3d80b96b3daf6fc8U, 0xbbd9a55bbda5fc8eU, 0xb0acdaf63bcf4c34U, 0x3e8a6940ad72a869U,
  0x4c59f08000899fU, 0x20648c098608b239U, 0x26c81492a320b9b1U, 0xa7b57c668b83f485U,
  0x9da8758e00008948U, 0x278e729e00008a21U, 0x831a8f8b0899b78U, 0xac6c4d9500008923U,
  0x25b34d2d03040835U, 0x801eafa4b0b4b106U, 0x2bc7c098aa827dabU, 0xaf1a9be38000a7baU,
  0xb038af47bb4a798cU, 0x17603c3fb77c3769U, 0xaf96eff2800088fbU, 0xb89ab46d0a040309U,
  0xad7a5656bb38e466U, 0xf2336701a39U, 0xfe9e9e188018073U, 0xb62db5a805cd3965U,
  0xb1362455baa3b681U, 0xa6009c3c36cab1dcU, 0xa30da2ad800048c5U, 0xb71c4c8a24908b67U,
  0xbdb429aa3dcc2aebU, 0xb6cdee603e3fe075U, 0xb076fab0bc4eb15bU, 0x3b9ff40280008c2cU,
  0xbdbfcbb13e60e963U, 0xb709e780bdd2bc3cU, 0xaa91f53abc86613eU, 0xbdef7810093d3ba6U,
  0xbe495ed13bc0ea5fU, 0xb9a1ffa03e6aa0b5U, 0xaecef3b1bc457739U, 0x3e78d6e2815cf6bcU,
  0x3e6193f93eb4c8acU, 0x3618b2e73da17d93U, 0x2bc2b9fb3ca4552bU, 0x3da6800d019a5072U,
  0x3e011fae3e0a28dcU, 0x3649cce0bdd74b25U, 0x2cee2a8d3ca356f9U, 0x3e6710aa000088e1U,
  0x3e003c9a3e17085aU, 0xbc3119babdcbc93eU, 0xb0c1ea973c9cd993U, 0x3e09ddab00049ac9U,
  0x3e64116bbe27869bU, 0x37ff3320be1a4c59U, 0xb102ebaf3dc5f6b5U, 0xbe7a730d210387fbU,
  0x3e784e3f3dc14813U, 0x385cdd42bd8c1c38U, 0xac252eda3dae3b02U, 0x3cbf6c5780008989U,
  0x3ec1fe823e50ca33U, 0x3aee21d5be860a4fU, 0x2fbe00ed3dbae89cU, 0xbe6de9e8a7b6ff0bU,
  0x3e5a8445bbc130deU, 0x3834ae51be5bfedfU, 0x2ca03c473dc66981U, 0xbda9c1efb0a1489aU,
  0x3e2710913df05fb5U, 0xbcc7900cbe943cf5U, 0xb127f8de3da394afU, 0xbe3f9c03800089f3U,
  0x3e5f54c4bd5cbbf4U, 0x386428b0be831b20U, 0x2c860f263ddaf6e6U, 0x3e19c61e960c0748U,
  0xb0ad7adb322e6065U, 0xaa13bd62319a998dU, 0x9f9a7ff2b018ac86U, 0x31ee26cb2b3658f7U,
  0xb0aa37c1323cf2dbU, 0x312e488b320bf7e7U, 0x25019d29b01c57d6U, 0x31bb8767ae948a44U,
  0xb1203418b2d218d0U, 0xab02ae06b089fcf2U, 0x9eb80fa6b049f762U, 0xb0b9a3f8204ebc52U,
  0x3e5af9583cb9e81eU, 0x38258c85be17dca1U, 0x2cb41ad53dbdbe24U, 0xbe7c8e4d0000891aU,
  0x3e9787ff3e541af2U, 0xbca23829be3ebcddU, 0xb146653a3dad65dbU, 0xbe8112508000898bU,
  0x3e5f5376be104396U, 0x386695cb3d397a02U, 0x2c5382453ddab708U, 0xbe16bb2c80008915U,
  0x3ef7da10bd89b668U, 0x37b6062bbdb4962cU, 0x2c5240553db3b9b0U, 0xbe011968000088dbU,
  0x3f0b10153e031d8aU, 0x38073d4dbe732e88U, 0xace225a43daa234eU, 0xbd1afaedaed3569bU,
  0x3ee484f03d9c00adU, 0xbcc06c61be3223d0U, 0xb165c4413d9c0f5eU, 0xbdb3879a001c4a1aU,
  0x2dac50802db8ec1aU, 0x26ceb5c9ae1d4758U, 0x2a06777e2fdc0c90U, 0xae01fec580008a2dU,
  0x2de11e2e2d59d287U, 0xa999dc5eae30a49eU, 0x290d15d62d08a6b4U, 0xae067d89b085bbfaU,
  0x2e15737c2d887c73U, 0xaa996bd6ae0a28a4U, 0xa7e9a8092cd56edaU, 0xadfef4fbaac5cf79U,
  0xbe48a300bcbe6082U, 0xb7a171b53e3c0058U, 0xab976dffbd4d9466U, 0xbd3ab5920ea161ddU,
  0xbe3954733e5f577eU, 0xb8022fa7bc89da84U, 0x2bdcb41ebd6367fdU, 0x3d0b74bc0885fe34U,
  0xbe098fea3d82b7c0U, 0x3bc4d0803e593227U, 0x3074e241bd597ab6U, 0x3e1438ad0ba1d677U,
  0xbeaced293da4a51cU, 0xb80521903e48c3f9U, 0xac980bf3bd7c6c02U, 0x3e3561020000893eU,
  0xbeb5ccfe3d474cf7U, 0xb7a4264a3e5532cbU, 0xac5448b8bd8337faU, 0x3e41c2c803a094a6U,
  0xbeb6f0423c5e2016U, 0x3c0d75993e656460U, 0x30f6dfb5bd82a4c7U, 0x3e3ec1ef80008984U,
  0x3d8a6b543e3fd014U, 0x3688ea433cc15f9eU, 0x2a955d7c3c3a76c9U, 0xbdb9efdf80008b77U,
  0x3dc99a5a3dd8717fU, 0x3bf83dc2be00cd36U, 0x30afda353c4216c9U, 0x3d92e2eb1a47a16aU,
  0x3d6fa5dfbe1d756eU, 0x36b0309bbe0b82ccU, 0x2af97a953c3b8b4cU, 0xbe0b3ea025332f36U,
  0xbe45a6a83d83be57U, 0xb765470e3e820664U, 0xac3254d6bd582423U, 0x3c833c3e922024b0U,
  0xbe3aaa243d608d17U, 0xb7d48d403df3c04fU, 0x303fecd4bd75a885U, 0x3d42358d28a0cbc9U,
  0xbd0c7ab33daff654U, 0x3bbc442ebd648558U, 0x3057650bbd712525U, 0x3e479b2d2a3ce56fU,
  0x3e0de6253e8dec79U, 0xbb2dd79700008969U, 0x3e87d2383a9370e4U, 0x3ec2bea83e821e66U,
  0x3ebdc3fe313fad63U, 0x2e17f49d3e7d08f3U, 0xbd8befcbbe81b8d3U, 0xbe69a99fbdb9248eU,
  0x3cff343e3d9db46bU, 0x52800e13a718c1U, 0x3d854ef5bd79f5e4U, 0x3e776de03e6f6fd8U,
  0x3e81129cafaf08c9U, 0x2e0933833e86c87dU, 0xbe4dc1b3be17f3aeU, 0xbe0a55e73d5a6e11U,
  0x3d02df563d9291aeU, 0x92dea00008991U, 0x3d742447bd5eb546U, 0x3e7f34f43e88a6c9U,
  0x3e8397b3b10ff801U, 0x2dd3d3df3e8b047bU, 0xbe43f7febe0b56d7U, 0xbe07c2e83d30e40fU,
  0x3d6b658f3db16d87U, 0x23dc880008930U, 0x3db43aa9bd16a70eU, 0x3e7ebaf63e887762U,
  0x3e6d20e5b2160ebeU, 0x2e24e00f3e901ea7U, 0xbe386699be037e45U, 0xbe00d620bc1c5497U,
  0x3e1f63013d75d826U, 0x34f7d361930cd601U, 0xbd1ce3e3be0c7b44U, 0x3e3cd0ee3e3839f6U,
  0x3eacf8ecafcee4a8U, 0x2dad5ec93e1495dcU, 0xbe100596bcfb7b79U, 0xbdcd609f3d89f239U,
  0xbcb0dd953d630dabU, 0x36a29da1818d3721U, 0x3dae75dc3d15319dU, 0x3e06960e3e5810ebU,
  0x3dcce03db07eec58U, 0x2d89d4d83e586f55U, 0xbe175970be1ae1e5U, 0xbe8e48623d08fe82U,
  0x3b89fb653d804ee0U, 0x370c141980008abaU, 0x3e102d2cbdd174daU, 0x3e6df14b3e0d966bU,
  0x3e2febbab1fb82fbU, 0x2dad60833e512785U, 0xbe08f0e3be06c008U, 0xbd9c5203bd45f803U,
  0x3c6f801b3d5e2bbfU, 0x325e7d8780008aafU, 0x3be7ad16bd18d329U, 0x3ed615443e476a2fU,
  0x3ed87950af026004U, 0x2d68c2793e589184U, 0xbe2045eebdd81267U, 0xbe0d65bd3d5a14a5U,
  0x3dca01773d5e8ce1U, 0x3563045680003719U, 0x3e072d1cbcf2e9c5U, 0x3e24836f3ea431cfU,
  0x3e907a64b10ff3f6U, 0x2d8ead693e507978U, 0xbe24725abe77bbaeU, 0xbe2fb8c9baec65d4U,
  0xbcac3d363d9a1facU, 0x3634d28423b61809U, 0x3de62b09bd7b812fU, 0x3e81a0de3e88840cU,
  0x3ed31c70b1835827U, 0x2d7214103e712a4fU, 0xbe036dadbe356a42U, 0xbd7e2785bd0bacc9U,
  0x3e17200a3d4ce892U, 0x30accd9a80008984U, 0xbd8cdc3cbd36f188U, 0x3ebe336b3eabc111U,
  0x3ed2cf42af3f81d7U, 0x2d6cb4c03e0db312U, 0xbde98199be7341f4U, 0xbdbd5dfe3d14e83cU,
  0x3dae886c3d4b25e2U, 0x338c57dd800089f4U, 0xbdb8896d3d54f801U, 0x3ebd8f673e37bf08U,
  0x3eba3f7cb051b5cfU, 0x2d4856343e5160d6U, 0xbdec5433bd823d99U, 0xbe7f728e3c8566dcU,
  0xbd2ef7223d5ddd3bU, 0x34dcde49800088efU, 0x3d0cdfd63de1d26bU, 0x3ed38e4e3e42069bU,
  0x3e9ee085b18adbf6U, 0x2d55d0453e45b5aaU, 0xbde05ca1bd94be33U, 0x3ca56c46bd2448f9U,
  0x85f99aed0000b812U, 0x23434a77800088fcU, 0x891c03aa0f97U, 0x800088de80008c42U,
  0x88f78030fa15U, 0x9418dd6f000046eeU, 0x228ef9f8814b999bU, 0x8ccdb3579b1faeccU,
  0xa2d2ee5b800089ffU, 0x800089309f97af71U, 0x880c5d35000036a2U, 0x895480008d55U,
  0x80126d85a3801782U, 0x6336bf207db17d6U, 0x80008a3f80008997U, 0x8000897481c4de46U,
  0x8066b4b88000890aU, 0x800088d0861707f6U, 0x800089ef000089e0U, 0x88df000089fcU,
  0x21a60ca1800adf35U, 0x9e12b58b001506baU, 0x88cf878a63a7U, 0x4965a000088feU,
  0x3d71bc543d417b62U, 0x30b27d0180526be3U, 0xbcbbee843da21300U, 0x3e82d4353ead4908U,
  0x3ebda4d4aec9e0c3U, 0x2d36e1733e0f6680U, 0xbe060a6abe484dfcU, 0xbdce609a3d3a6392U,
  0x3d795e543d578d86U, 0x341762a6000089ccU, 0xbbaa755d3dfcbeceU, 0x3ec9cada3e70b736U,
  0x3e594586b04741daU, 0x2d5c4f663e531d49U, 0xbe04c7e8be68a5f7U, 0xbe6e5b7d3cad2b5dU,
  0x3dbb50c03d64a5fdU, 0x3545992101853bb0U, 0x3d703c6abd8527e8U, 0x3e9853b73ec3bc55U,
  0x3e8a2201b1b2390bU, 0x2d4f420e3e52fbd2U, 0xbdf0dd7ebe179b0aU, 0xbdaef506bd2ae7c5U,
  0x3df6658a3d1803efU, 0x339676e91b2fd76bU, 0x3e098e91bcc56ae1U, 0x3e9784243e75486cU,
  0x3ebf43a3afaf8ac4U, 0x2d7cf8a03e0c7e8dU, 0xbdf2e463be366e7aU, 0xbdafb30d3d1a23b7U,
  0x3a051c663d04fa1bU, 0x331b6bd40001bc7dU, 0x3cb2a9b2be2b1ee9U, 0x3ebcf95b3e8612b6U,
  0x3eaf7f23b16d6592U, 0x2d772a6a3e26cff4U, 0xbe10429abe317860U, 0xbd6f6493bd2e3c63U,
  0xbd85aa653d9a45beU, 0x33c83a1e0002454fU, 0x3d8ac3cbbbebb92dU, 0x3e8e33863ec670e3U,
  0x3eda42c8b08682f8U, 0x2d8f73ae3e3d7ac5U, 0xbdbd6ccdbd4a6797U, 0xbe0d355c3c765c7bU,
  0x2774e43928f76933U, 0x8004ac8a0ea61a23U, 0x28a1ff32a8989c36U, 0x2967b8d529565481U,
  0x296e85849b2784f6U, 0x192accbc2983f441U, 0xa95bcafda90c7e11U, 0xa9030932287185b9U,
  0x27a32c31290005f0U, 0x21013d371a0c78ecU, 0x2881cd2aa89fb444U, 0x2973af632981645aU,
  0x297a593b9c28cc92U, 0x194ee605298e9e65U, 0xa9770a4ba915393bU, 0xa910abfe2832e26bU,
  0x280de7ee291bbf80U, 0x5f3491bdd1c0U, 0x28d92298a887812eU, 0x297ab46d29837302U,
  0x296d57c21f4e7067U, 0x1949fdfa29940da4U, 0xa9684a8ba914ba1aU, 0xa90a4374270319a6U,
  0x374c3acc3896de1aU, 0x80008e3a1154b599U, 0x383b828eb82db20dU, 0x390820c43900c950U,
  0x390aba15aad73a15U, 0x28eef338391aaa91U, 0xb901411ab8acd3d7U, 0xb8a373ee380ca554U,
  0x365cf748388d24cdU, 0xea7be9880008a54U, 0x382ae8f8b8464412U, 0x390dba113911d5ebU,
  0x390f69d7abfff8dcU, 0x28abe4273926fe64U, 0xb90a30b9b8afb1ccU, 0xb8a33f0237d05e85U,
  0x37b7ebc138b6d869U, 0x892c8c6e1c0bU, 0x388170ebb81da576U, 0x39148db73919df33U,
  0x39083d22acce9469U, 0x28fee4a3392bce10U, 0xb90979e8b8b0eaf1U, 0xb8a33cdcb6504766U,
  0x332afb3032ccae01U, 0x8000898f00008961U, 0x33348fcc3309e65aU, 0xb2e1f391b2d2a7ceU,
  0xb2daa19125d48da5U, 0xa240de0db2d285dfU, 0x333e12b233016b0eU, 0x32f2fce7b1c27b5aU,
  0x33393ec832ce45e6U, 0x89db8000890eU, 0x332ce8a033279dfcU, 0xb2c1e8fab2d5f141U,
  0xb303405125da8678U, 0xa28a252ab2db3d49U, 0x3339a94a33007c82U, 0x32ebd8f3b1df3b9fU,
  0x3343afd332dcf014U, 0x112e0d3f000088ceU, 0x333df78b3302f7a6U, 0xb2dc136db2bbf12bU,
  0xb3068282a692cb99U, 0xa2219f36b2f6bcf6U, 0x33438b98331a6401U, 0x33042e35b28d7dbfU,
  0x3c9822b13cec376dU, 0x1eabbce6230b0c86U, 0x3e2cb156bd84f48cU, 0xbd9161a6be5f8755U,
  0xbde8d5122fc26878U, 0xac4943adbc9bf2c3U, 0x3d8774e83e1e8e64U, 0x3e3a83a4bbd17e65U,
  0xbd56a6a13cf08b63U, 0x1c060db28000adfeU, 0xbd81d46e3de34e5eU, 0xbd9da429bd77e24dU,
  0xbe4acd032fc9e48cU, 0xac1eedc5bca17cabU, 0x3d8cc0b93e5d4fc3U, 0x3e704869bbd986dcU,
  0xbce8aa763d022722U, 0x27ff9b3000008bb5U, 0x3de2d0303e1b8742U, 0xbdd164d8bd8f88daU,
  0xbe415e45b07763bfU, 0xac004e1dbcab9811U, 0x3d9225793e865bf9U, 0x3e0fc2e3bd09e05fU,
  0x3e01dcff3d9235d3U, 0x360d4ca78840a946U, 0xbda32226bc3b6f89U, 0x3eb533773e6683bcU,
  0x3e2d8ffaafc433e5U, 0x2dd260a13e887d93U, 0xbe1f7adbbe400b44U, 0xbe323a4c3d91fea1U,
  0xbd67932b3d8ab493U, 0x377d37212356e5b4U, 0xba505af13da729f2U, 0x3ea85bdf3e84d115U,
  0x3eb70665afe456dbU, 0x2d8d16473e814ff7U, 0xbe16952abe874007U, 0xbdc2f43a3ce9252fU,
  0x3dfc6beb3d8a0682U, 0x3749e7a000006b4bU, 0x3e258004bd1a9b2aU, 0x3e97c4893e593990U,
  0x3dc6f3e9b19ada5cU, 0x2d94254d3e5d8367U, 0xbe235f82bb70c9fcU, 0xbe830154bd8da9e6U,
  0xbde9c39e3d0c7faaU, 0x2d07919493f57291U, 0x3e1628d73e1a6d68U, 0xbd84cb76bcecfcc6U,
  0xbe40af5c300d0dbcU, 0xaca481e1bd101dbcU, 0x3dd83ee93e056a43U, 0x3e4dbe8abc72fbecU,
  0x3dbca37b3d0e4179U, 0x2d44baf8101f914eU, 0x3ce117893deb35dcU, 0xbe8c1b6bbd7469ebU,
  0xbe41794f3018dbf7U, 0xac7206abbcecc651U, 0x3de311eb3e236df1U, 0x3d8fad86bc886627U,
  0x3d9cec5b3d1dba79U, 0x2cbb74dc00008977U, 0x3df8b07cbd6df88eU, 0xbe3fa19abe848994U,
  0xbe45778db0b24b8cU, 0xac9874fcbd170dddU, 0x3ded59333d1fbea9U, 0x3e80bb96bd8ffda0U,
  0xbd0bdc550fabb3cbU, 0x8000891780008c89U, 0xbadfa808bc60b15fU, 0x3b74db673bb6dd47U,
  0xbac609f40cb13876U, 0x15a0d1ab800088d4U, 0x80008af884d20ac2U, 0x2231c31d0c97c05cU,
  0xbcc899b20dd00c30U, 0x800088e3000089dcU, 0x3bece3c3bcbd3ee9U, 0xbb315ddfbad60ee9U,
  0xbb6f246600008f91U, 0x968697ad849f21dcU, 0x8000a97b11ccc2a1U, 0x1c2931de80004ac1U,
  0xbc959c690e7c1cf5U, 0x22cec2448013c4c5U, 0x3bb4cdf03c067b56U, 0x3b9efc093aabf905U,
  0x3a262785000473bbU, 0x22021dbd8e297e5cU, 0x8906180e0e53U, 0x2ff3bea410e2d539U,
  0x3c089e043d30708fU, 0x2fa1a8079e87e36dU, 0x3e3690b73caad200U, 0xbddb69b9be0eeae7U,
  0xbe03dff03016f933U, 0xacc14408bd1d4960U, 0x3e0064223e82be4bU, 0x3e66f04bbc9a4ae8U,
  0x3e130bd23d363b3cU, 0x2f9114e300008cc0U, 0x3c4c59d63d120e49U, 0xbe9adee5be993d93U,
  0xbe5efc7f301fd752U, 0xac7e7e47bd19ae31U, 0x3e03a5333e68c1caU, 0x3e6783d1bc98cc54U,
  0x3dcf3c4b3d48a36bU, 0x30f59e1c00001775U, 0x3e3551c03d3b8c3fU, 0xbea15ca9be19430fU,
  0xbeb7d61eb10ba0a0U, 0xac961a4fbd2a5ea4U, 0x3e07e6a93e49dbb9U, 0x3d1d0569bda2461eU,
  0x3dd8a1af3cc79e0fU, 0x345ab2da89605c3aU, 0x3d99a240bd852af6U, 0x3e9bb45c3eaf1c89U,
  0x3e803188af8f4ed0U, 0x2d8e6bce3df9ac40U, 0xbe08366cbe88759bU, 0xbd621bed3d2a7a10U,
  0x3e0f2e7d3d6e8ca7U, 0x330e101d91c795b5U, 0xbd3a5a6b3b728cdcU, 0x3eb4d6e83e61350bU,
  0x3e87e870b06eea8bU, 0x2d9c8c303e4d76ceU, 0xbe04549dbe9c7867U, 0xbe89f7d53c640987U,
  0xbcd927073d82009eU, 0x346169eca034ac5aU, 0x3dde4972bb9bfdfaU, 0x3edc25403ea1a813U,
  0x3e960c16b1c4933eU, 0x2da3646a3e424ce2U, 0xbdee32bdbde7bfdaU, 0xbdaf6354bcf43296U,
  0xbae2b81d3d72c30dU, 0x33b2773200008a7aU, 0x3c6dac87bdbb7be8U, 0x3ec25a9a3ec956c0U,
  0x3ea3a9afaf8d655bU, 0x2d6b52ab3e64dc5bU, 0xbe13005abe649330U, 0xbe957d763d5a723cU,
  0x3ce2dc013d72de88U, 0x35db2591800088f7U, 0x3df712093ca14531U, 0x3e9783093e764881U,
  0x3ead8300b018b5c0U, 0x2dbdd88b3e04f916U, 0xbe0c2004be897601U, 0x3ad8d1753d1b58e4U,
  0x3cbfd33b3d67fe30U, 0x36582c4900008a5bU, 0x3ddd1ddf3d9008f7U, 0x3e7252013e56c775U,
  0x3e11dac7b1f8bad5U, 0x2d6dd9953e7221b6U, 0xbe10648abd7b0919U, 0xbe49fbadbd43c403U,
  0x3bace3591b97399eU, 0xaed4800088c8U, 0xbb6053b0ba2a4cc4U, 0x80005340b6be788eU,
  0x32e03ba280cf3574U, 0x8000908b80008963U, 0xbbcc25630bad699U, 0xb2cb0df500008b77U,
  0xbc046b7280008e19U, 0x82ed20c700008c85U, 0xbb1673c53b08d3bfU, 0xb63fb361b4f47e59U,
  0xb936926100008ebbU, 0x905ab576fb9aU, 0x35ef36a63b5dU, 0x38f707feaf0b4322U,
  0x9bc954439a2bed7aU, 0x8000893a8e98b78cU, 0x9f2dbb550644af05U, 0x8b9d06d210f4U,
  0x1a48d00008aeeU, 0x800088e904761586U, 0x87df6d8580009808U, 0x8241e19b800088bdU,
  0x3d855ebb3d8f8a19U, 0x33159233904097eaU, 0x3dea2f72bdc0d3c2U, 0xbd427e61be094d6bU,
  0xbe739898306ade68U, 0xacb76ebabd143dc8U, 0x3e19c7003e73e88fU, 0x3e4931b0bcc128eeU,
  0x3e09c1f33d8e4a0aU, 0x3301e20b80008937U, 0xbd951522bd5078a5U, 0xbe1a130abe881ca2U,
  0xbe93f2ef30779ae8U, 0xac8e6145bd1eefb2U, 0x3e210a113e8abda5U, 0x3e0ab3efbcd1321dU,
  0x3e11661e3d9b617cU, 0x3325e348023319f9U, 0x39bb175d3de2ab03U, 0xbe96c9adbda42d0cU,
  0xbe0e9eb0b1769e6bU, 0xacf56647bd32e871U, 0x3e21a7cd3e3248feU, 0x3dbc2046bdc563ceU,
  0xbcc8d1f93d73bbbfU, 0x33adced9000088c5U, 0xbd29d6adbcb7f97bU, 0x3e8987cc3ec09912U,
  0x3e9f62ceafa667f6U, 0x2d6ae18d3e501b08U, 0xbdf8fc95bd43f168U, 0xbe19575f3d3831a1U,
  0x3d0f41113d6d971aU, 0x351e3a770733a6c7U, 0xbd40dc25bd4b910fU, 0x3e9947da3ec0f112U,
  0x3ea3800faf82767cU, 0x2daaa0b73e47bd93U, 0xbded1631bce5185fU, 0xbdcd94d53d305073U,
  0x3ca8ff373d6963e5U, 0x3525530c800089b9U, 0x3df3f78ebd42f952U, 0x3e436fd93ed0c818U,
  0x3ea1d426b19e866fU, 0x2d7fe78b3e5c29b4U, 0xbe0ad230bb9855f0U, 0xbd6db5a3bd93ca16U,
  0x3dfd9c0a3d69fa71U, 0x3445c1e580008be4U, 0x3e3c42d5bc53bdc6U, 0xbe891094bdb73a46U,
  0xbe18de89308e34a0U, 0xad043326bd590c1cU, 0x3e27f2e33dfdc145U, 0x3d368317bd05a4d6U,
  0xbd4a69263d6ddff8U, 0x34362f040514b2d0U, 0x3da56dd03e34753dU, 0xbe5f1387be161e6dU,
  0xbe629224308e725bU, 0xacc9077cbd9dbda7U, 0x3e2c71d13dd273d7U, 0x3e25f85cbd16480eU,
  0x3d55d6b23d7fae2eU, 0x3448111480008930U, 0x3dcfaa0b3df39828U, 0xbe4b1d4fbe86cce5U,
  0xbe9b9eb5b18ea01fU, 0xad225b67bd5c713bU, 0x3e34aa3c3e212d2eU, 0x3e078c57bdec563aU,
  0x3d53aab73d739c64U, 0x35639db514a93626U, 0x3e28da2f3de04c1fU, 0xbe89da22bdb92261U,
  0xbe4076d030867e87U, 0xad0f896bbd729787U, 0x3e2fa7533d5c4ee7U, 0x3dcdb37dbd057676U,
  0x3bd9e9f03d791ef5U, 0x35b1baab8000895aU, 0x3dec1ad23e3b8994U, 0xbe94c6a1be79d907U,
  0xbe18db6f309ef8a5U, 0xad23a6b1bd0edd28U, 0x3e2fdcc63d4d5c28U, 0x3e593feabd48b99dU,
  0x3d712afa3d8d3052U, 0x35a72c430000921eU, 0xbc6d4bf23c2fc39eU, 0xbdcc35dcbe506267U,
  0xbdac8f1cb1c245c6U, 0xad322b8abd49ad7fU, 0x3e47844f3e85c3f3U, 0x3e3ad038be013ae9U,
  0xbdea22e33d3b8ad9U, 0x3095195f06361ebbU, 0x3d86aabbbe1180e0U, 0x3e7a490f3e705e3cU,
  0x3e8107d1afa18129U, 0x2d3bb83d3e2fcf46U, 0xbde795dbbe48135eU, 0xbe62c78b3d12f223U,
  0x3db1a5593d40bd54U, 0x3415dd5b023294e2U, 0x3d550dc33c9c4718U, 0x3ed8c73c3e901894U,
  0x3eb1f8b9af9e4904U, 0x2d5e4f173e10f06eU, 0xbde0403ebe34b0d2U, 0xbe626e2c3d104b5eU,
  0x3db569f43d3c71ccU, 0x342012a880008a7aU, 0x3da1291b3daf88ddU, 0x3e4e72ef3e91aa94U,
  0x3e56961eb158a44dU, 0x2d7f7ec33e377ec8U, 0xbe03cde7bdad2e6cU, 0xbdf99790bd57edc8U,
  0xa00133a003b3c1c2U, 0x8f3e0a8a0bf4U, 0x19bd0d208ca03130U, 0x22ea20e78f978928U,
  0x3a2e8710000891eU, 0x6b0722ffb301U, 0xa4d2bf1e07b8294cU, 0x4dcc3780e227d26U,
  0x16b978088001d7baU, 0x8b7ef4b600008946U, 0xa9ac7be08eb7ba5eU, 0x8c932e1f0519678aU,
  0xea402bd000088deU, 0xd9f681407161609U, 0x49c71f3936d4d19U, 0x8fd44f0f0e3f757eU,
  0xa7ff1e4580ec609bU, 0x8e131be900008993U, 0x18942c9ea5673c10U, 0x8b2151141060c18bU,
  0x862cbb2d80008bd8U, 0x898e86c86198U, 0x87192a2c0f0745e3U, 0x957759c80031c25U,
  0xbdcb122e3d5d0c63U, 0x31fecbc084e4d5ddU, 0x3d895f723d7991a5U, 0x3eaff5fb3e5a8a19U,
  0x3ed8e0ffaf4b722bU, 0x2d3fe4ff3e431631U, 0xbdf84cd0bd87b316U, 0xbe6712cf3d263c6bU,
  0xbd1dd7823d592f71U, 0x34932a0d8841ee99U, 0x3da33f9ebcce09a3U, 0x3e6a84303eac707dU,
  0x3e901c54afd2437eU, 0x2d8c28be3e2e22caU, 0xbdf5430fbe638c91U, 0xbdde341b3d165ca7U,
  0x3def6c573d567c8bU, 0x35632a4100009b48U, 0xbc381d1f3cc54dd0U, 0x3eb14b403e9ffe6eU,
  0x3e920849b18b4bcbU, 0x2da9fa3e3e3f90fbU, 0xbdfe249cbd97d4bbU, 0xbd72a583bd8cf59dU,
  0xbd7a428d3d75fe0dU, 0x348bd397209ef3d8U, 0x3d599fef3deb4905U, 0x3e4ec0213eaeab91U,
  0x3e6e622caee572fcU, 0x2d8381243e6b6857U, 0xbe15f4a7be435a8dU, 0xbd5816543d72d2caU,
  0xbd9d06cd3d819672U, 0x365b0c1b800093a7U, 0x3d679b6bbbf32f47U, 0x3e9465c93eaf1bd3U,
  0x3e69e893afb077faU, 0x2d9685563e309e98U, 0xbe0b81f6be39af22U, 0xbe07b3543d160943U,
  0x3d8376993d8163b8U, 0x36da284b80008f71U, 0x3d9ef529bd822d77U, 0x3e2188613e357531U,
  0x3e2bdfb7b18764a6U, 0x2dd58ef93e7cb118U, 0xbe0c4bbebe0f9ba4U, 0x3cde893dbd720eb1U,
  0x3e36c2373d72812dU, 0x2c3b33a40000897cU, 0x3d2faddd3bb115ffU, 0xbe2f9027bd93dc29U,
  0xbe828b58301eb951U, 0xac0b350abc9d5ec4U, 0x3dd787063e635e66U, 0x3d3e61f2bc36076cU,
  0xbd4ea0c33d76f39bU, 0x2cd11b2d80008a15U, 0x3cea794b3e216d44U, 0xbdf21b88be3fdb79U,
  0xbea4ba4a300c8f6fU, 0xac4b7300bcaacc61U, 0x3de282e13e859763U, 0x3e5a2660bc4b0354U,
  0x3e0a2ed93d84f0fcU, 0x2dd7aa9e80c09e6fU, 0xbcae2a6f3dd418f5U, 0xbe93cbe9be3a212cU,
  0xbe57cd65b0ea54d5U, 0xac3e1627bca6873fU, 0x3dec40423e5be16eU, 0x3e8d392dbd6c4b58U,
  0x3da25a953d48dc81U, 0x33a89ab5800062f3U, 0x3da0ad3bbd14551aU, 0xbe6f2f03bcea3943U,
  0xbdb1325130693043U, 0xad198132bd5abf2eU, 0x3e2287593e54eaa2U, 0x3e18b57ebce375a1U,
  0x3e45c10b3d515a7dU, 0x339d16050fc08cbfU, 0xbcd8496b3ddd82a2U, 0xbe6374bbbdcae18dU,
  0xbe9d5d1330833bbcU, 0xacbce79abd63f671U, 0x3e25b55a3d09c269U, 0x3ced22a1bcfdaeaeU,
  0x3e4aa1263d6f2909U, 0x339a97e2000088d5U, 0xbc43e32e3dc149ffU, 0xbe7ba0d6bdc8ca43U,
  0xbe584a93b1545f41U, 0xacede3bbbd3bde86U, 0x3e299b4b3dbf39d1U, 0x3de171c7bddd7894U,
  0x3d8aae753d29fcc0U, 0x3094eb311773f21bU, 0x3d5fc6e63de54eefU, 0xbe26e907be6e9bd6U,
  0xbe3cf9c2301fdac0U, 0xacab15bbbd30213aU, 0x3e06a5383e4d6458U, 0x3deaaa08bc9f9d57U,
  0x3d944e313d2aa9c6U, 0x308236da03b56545U, 0x3e122eb63d9736f9U, 0xbe77bdf3be2f07f3U,
  0xbde7d76130216968U, 0xac8b97d8bd371a50U, 0x3e0aeaf83da2ef30U, 0x3e200070bcaa7323U,
  0x3da2cad93d3d26feU, 0x304e42ea829b5bd0U, 0x3e194cce3dabbbe2U, 0xbe572315be6a0193U,
  0xbe60037db13ccb89U, 0xac9ef8e5bd3e8e23U, 0x3e0a61b23d9876ccU, 0x3e01186ebdc11dceU,
  0x3d16f0983d52a5faU, 0x31673d6f805d0fdcU, 0x3e0910efbd18c222U, 0x3ea338e73eb5860dU,
  0x3e86ed73afadbd07U, 0x2d8bfe063e448864U, 0xbe0f0401be7535f7U, 0xbe7e25b43d3b36b6U,
  0x3bc13a813d73c84dU, 0x34da5c09234684feU, 0xbd4ebdbbbd4b3069U, 0x3ec503063ebf36bcU,
  0x3e82cd23b0074401U, 0x2d45fc963e2f9148U, 0xbe094793bd7aec32U, 0xbe09d82f3cfbd0c1U,
  0x3c17a45f3d728f61U, 0x351ffe4580008b1cU, 0x3dd15b703d0321a3U, 0x3eb35e773eb29384U,
  0x3e911aadb1ce8175U, 0x2d8b22ef3e5bde49U, 0xbdfc347bbe3a67c7U, 0xbd89ba35bd5f70baU,
  0x345257c333ce03f0U, 0x80002d61000089f2U, 0x344be9f53420f518U, 0xb401f7b8b3e53309U,
  0xb3f2877326efd2f4U, 0xa3778eebb3f18df0U, 0x345523f53411b699U, 0x33fe0021b2ea8f0bU,
  0x344ffa1933e36e9eU, 0x80007a22a03bbb4fU, 0x34512db034219c82U, 0xb3e7ce33b3f9dc7bU,
  0xb4066b882700add7U, 0xa3700c90b3e3d45bU, 0x3467916b34113fe6U, 0x34070339b2dcb28aU,
  0x3452da0833e6c7acU, 0x88c413001b40U, 0x345bb2c23424e74fU, 0xb3f97bacb3fd2589U,
  0xb41454f3a79d3092U, 0xa3aad463b40b09e8U, 0x347155d9341b1c5eU, 0x340f5b55b39c6004U,
  0xbdd3485a3d796695U, 0x3456f48600008946U, 0x3e0575ae3d932d58U, 0x3e86ea4e3e8d83a5U,
  0x3e6480ccae9577b1U, 0x2db5cbc53e74f2bbU, 0xbe242c9dbe08d1b8U, 0xbe2be9173d940713U,
  0x3d184f4f3d9f01f6U, 0x36f583160000899fU, 0xbda712243d2da76bU, 0x3e9edc303e6f69a5U,
  0x3e8f7f3dafed3f32U, 0x2dcf5f953e2c93deU, 0xbe143a1bbd06bd07U, 0xbe25c9903d795aa6U,
  0x3d02b50d3d9c5829U, 0x36cb45cc8cf24320U, 0x3e38c570bd2d23afU, 0x3eaa6ad03eaa204cU,
  0x3ea9627ab1beda9dU, 0x2df31d063e87488dU, 0xbe2d7f51be5ad0e2U, 0xbe4119d4bd0ef141U,
  0x3e35a8d33e27ae61U, 0x3e8caccf3e0d7188U, 0x3e07f44d00009489U, 0x293e38263e482800U,
  0x322011a438d7abc7U, 0x3e27dd8a3d76e048U, 0x3d4a0c1a3d3013d5U, 0x3e4c03bb3b8b3d86U,
  0x3b0ddbeb3e4d74c9U, 0x3e93abbd3db7a544U, 0xbb99daca3c909bd0U, 0x19e3d80b3e93c11aU,
  0x3e69b2053e80fa12U, 0xbca2efc53d81c919U, 0x3e898760bd59955cU, 0x3e2d8e3733505667U,
  0xbeca428ebf1ce949U, 0xbe9ca485be9371f7U, 0xbec1b54b96352ff6U, 0xaa3ab690be0ec580U,
  0x33f038e4b9dbc67bU, 0xbede759c3dbc94beU, 0xbb04718e3e574b0dU, 0xbed9ce6b3e34afeeU,
  0xa0da5dfbbea94eacU, 0xbe2e2a133e9f2eceU, 0x3eac253a3e982fa1U, 0x30b4f5f9beb56dcaU,
  0xbeca6b8fbea1f030U, 0x3e7813f63e902b51U, 0xbe93421c3e88537bU, 0xbea76d963513887bU,
  0x3ead28d73f1befc8U, 0x3e447c113eb53794U, 0x3e306011aa4a2537U, 0x2a3b22a03eacdb0aU,
  0xb41bfbf239dc0b48U, 0x3ec3b710be07fe0eU, 0x3c28b47cbe10e169U, 0x3dbacde3be75933cU,
  0x12091c343ea3973cU, 0x3ece43f8be690b46U, 0xbec5258fbea5be4dU, 0xb082040e3e0c29a5U,
  0x3e953d9b3e696fdbU, 0xbeac24d6bd85702dU, 0x3e909ab2be36a15eU, 0x3ee6c712b51d95bfU,
  0xbcf3343d3d263274U,
};


ai_handle g_network_weights_table[1 + 2] = {
  AI_HANDLE_PTR(AI_MAGIC_MARKER),
  AI_HANDLE_PTR(s_network_weights_array_u64),
  AI_HANDLE_PTR(AI_MAGIC_MARKER),
};

